/* Copyright 2020 The TensorFlow Authors. All Rights Reserved.

Licensed under the Apache License, Version 2.0 (the "License");
you may not use this file except in compliance with the License.
You may obtain a copy of the License at

    http://www.apache.org/licenses/LICENSE-2.0

Unless required by applicable law or agreed to in writing, software
distributed under the License is distributed on an "AS IS" BASIS,
WITHOUT WARRANTIES OR CONDITIONS OF ANY KIND, either express or implied.
See the License for the specific language governing permissions and
limitations under the License.
==============================================================================*/

// Automatically created from a TensorFlow Lite flatbuffer using the command:
// xxd -i model.tflite > model.cc

// This is a standard TensorFlow Lite model file that has been converted into a
// C data array, so it can be easily compiled into a binary for devices that
// don't have a file system.

// See train/README.md for a full description of the creation process.

#include "model.h"

// Keep model aligned to 8 bytes to guarantee aligned 64-bit accesses.
alignas(8) const unsigned char g_model[] = {
  0x24, 0x00, 0x00, 0x00, 0x54, 0x46, 0x4c, 0x33, 0x00, 0x00, 0x00, 0x00,
  0x00, 0x00, 0x00, 0x00, 0x14, 0x00, 0x20, 0x00, 0x04, 0x00, 0x08, 0x00,
  0x0c, 0x00, 0x10, 0x00, 0x14, 0x00, 0x00, 0x00, 0x18, 0x00, 0x1c, 0x00,
  0x14, 0x00, 0x00, 0x00, 0x03, 0x00, 0x00, 0x00, 0x50, 0x11, 0x00, 0x00,
  0x58, 0x0b, 0x00, 0x00, 0x40, 0x0b, 0x00, 0x00, 0xb0, 0x00, 0x00, 0x00,
  0x78, 0x00, 0x00, 0x00, 0x04, 0x00, 0x00, 0x00, 0x01, 0x00, 0x00, 0x00,
  0x04, 0x00, 0x00, 0x00, 0xde, 0xf3, 0xff, 0xff, 0x40, 0x00, 0x00, 0x00,
  0x1c, 0x00, 0x00, 0x00, 0x04, 0x00, 0x00, 0x00, 0x0f, 0x00, 0x00, 0x00,
  0x73, 0x65, 0x72, 0x76, 0x69, 0x6e, 0x67, 0x5f, 0x64, 0x65, 0x66, 0x61,
  0x75, 0x6c, 0x74, 0x00, 0x01, 0x00, 0x00, 0x00, 0x04, 0x00, 0x00, 0x00,
  0xbc, 0xff, 0xff, 0xff, 0x08, 0x00, 0x00, 0x00, 0x0b, 0x00, 0x00, 0x00,
  0x07, 0x00, 0x00, 0x00, 0x64, 0x65, 0x6e, 0x73, 0x65, 0x5f, 0x35, 0x00,
  0x01, 0x00, 0x00, 0x00, 0x04, 0x00, 0x00, 0x00, 0x5a, 0xf5, 0xff, 0xff,
  0x04, 0x00, 0x00, 0x00, 0x0e, 0x00, 0x00, 0x00, 0x63, 0x6f, 0x6e, 0x76,
  0x32, 0x64, 0x5f, 0x32, 0x5f, 0x69, 0x6e, 0x70, 0x75, 0x74, 0x00, 0x00,
  0x01, 0x00, 0x00, 0x00, 0x0c, 0x00, 0x00, 0x00, 0x08, 0x00, 0x0c, 0x00,
  0x04, 0x00, 0x08, 0x00, 0x08, 0x00, 0x00, 0x00, 0x08, 0x00, 0x00, 0x00,
  0x0d, 0x00, 0x00, 0x00, 0x13, 0x00, 0x00, 0x00, 0x6d, 0x69, 0x6e, 0x5f,
  0x72, 0x75, 0x6e, 0x74, 0x69, 0x6d, 0x65, 0x5f, 0x76, 0x65, 0x72, 0x73,
  0x69, 0x6f, 0x6e, 0x00, 0x0e, 0x00, 0x00, 0x00, 0x80, 0x0a, 0x00, 0x00,
  0x6c, 0x0a, 0x00, 0x00, 0x50, 0x0a, 0x00, 0x00, 0x1c, 0x0a, 0x00, 0x00,
  0xf8, 0x09, 0x00, 0x00, 0xd4, 0x09, 0x00, 0x00, 0xc0, 0x00, 0x00, 0x00,
  0x9c, 0x00, 0x00, 0x00, 0x78, 0x00, 0x00, 0x00, 0x6c, 0x00, 0x00, 0x00,
  0x58, 0x00, 0x00, 0x00, 0x44, 0x00, 0x00, 0x00, 0x30, 0x00, 0x00, 0x00,
  0x04, 0x00, 0x00, 0x00, 0xe6, 0xf5, 0xff, 0xff, 0x04, 0x00, 0x00, 0x00,
  0x10, 0x00, 0x00, 0x00, 0x31, 0x2e, 0x35, 0x2e, 0x30, 0x00, 0x00, 0x00,
  0x00, 0x00, 0x00, 0x00, 0x00, 0x00, 0x00, 0x00, 0x00, 0x00, 0x00, 0x00,
  0x00, 0x00, 0x00, 0x00, 0x00, 0x00, 0x00, 0x00, 0x14, 0xf0, 0xff, 0xff,
  0x00, 0x00, 0x00, 0x00, 0x00, 0x00, 0x00, 0x00, 0x00, 0x00, 0x00, 0x00,
  0x24, 0xf0, 0xff, 0xff, 0x00, 0x00, 0x00, 0x00, 0x00, 0x00, 0x00, 0x00,
  0x00, 0x00, 0x00, 0x00, 0x34, 0xf0, 0xff, 0xff, 0x00, 0x00, 0x00, 0x00,
  0x00, 0x00, 0x00, 0x00, 0x00, 0x00, 0x00, 0x00, 0x44, 0xf0, 0xff, 0xff,
  0x00, 0x00, 0x00, 0x00, 0x46, 0xf6, 0xff, 0xff, 0x04, 0x00, 0x00, 0x00,
  0x10, 0x00, 0x00, 0x00, 0x29, 0xac, 0x90, 0x3f, 0x57, 0x7b, 0xbc, 0x3e,
  0xc3, 0x77, 0xa7, 0x3e, 0xdc, 0x1b, 0xe7, 0xbe, 0x00, 0x00, 0x00, 0x00,
  0x66, 0xf6, 0xff, 0xff, 0x04, 0x00, 0x00, 0x00, 0x10, 0x00, 0x00, 0x00,
  0x14, 0x85, 0xfd, 0x3e, 0xdc, 0x7b, 0x79, 0xbf, 0xed, 0x49, 0x02, 0xbf,
  0xf6, 0xa7, 0x19, 0x3f, 0x00, 0x00, 0x00, 0x00, 0x86, 0xf6, 0xff, 0xff,
  0x04, 0x00, 0x00, 0x00, 0x00, 0x09, 0x00, 0x00, 0x62, 0x3d, 0x2a, 0x3e,
  0xa0, 0x9e, 0x8e, 0xbd, 0x9c, 0x76, 0x19, 0x3e, 0x10, 0x20, 0x24, 0x3e,
  0xa2, 0xe8, 0x0e, 0x3e, 0x66, 0xf7, 0x58, 0x3e, 0x66, 0x73, 0xe6, 0xbd,
  0x30, 0x72, 0xec, 0x3c, 0xa8, 0xd5, 0x26, 0xbb, 0x34, 0xe8, 0xf7, 0xbc,
  0x19, 0x05, 0x44, 0x3e, 0x04, 0x3f, 0x5d, 0xbd, 0x88, 0x48, 0xa5, 0x3e,
  0x51, 0x5c, 0x7f, 0x3e, 0xc2, 0x5d, 0x58, 0xbd, 0xf8, 0x15, 0x8d, 0x3d,
  0x06, 0x63, 0xb3, 0x3e, 0xf9, 0x8a, 0xf9, 0x3d, 0x26, 0xf7, 0x0a, 0xbe,
  0xc8, 0x63, 0x3d, 0x3e, 0xff, 0x31, 0x8f, 0x3e, 0x7e, 0xbc, 0x07, 0xbe,
  0x96, 0x8f, 0x10, 0x3d, 0xb8, 0x42, 0xc4, 0x3d, 0x89, 0x66, 0x42, 0x3e,
  0x44, 0x1b, 0x58, 0x3e, 0xf5, 0x5f, 0x6d, 0x3e, 0x02, 0xde, 0x87, 0xbd,
  0x3a, 0x04, 0x92, 0xbd, 0xdd, 0xff, 0xf3, 0x3c, 0x10, 0xd6, 0xa7, 0xbd,
  0xe2, 0x5d, 0x38, 0xbe, 0x8b, 0xf8, 0xbd, 0xbc, 0xf2, 0xb7, 0xe8, 0xbd,
  0x13, 0xe7, 0x12, 0x3e, 0x00, 0xd0, 0x37, 0x38, 0x15, 0x04, 0x6c, 0xbd,
  0x34, 0x7c, 0x28, 0x3d, 0xbc, 0x9d, 0xf4, 0xbd, 0x60, 0x5b, 0x95, 0x3d,
  0xdb, 0x18, 0x91, 0xbb, 0x23, 0xc6, 0x2a, 0xbe, 0x28, 0xde, 0x2c, 0x3e,
  0x60, 0xfd, 0xe0, 0xbc, 0x18, 0xea, 0xc0, 0xbd, 0x33, 0x20, 0x7e, 0x3d,
  0x12, 0x10, 0xa3, 0xbc, 0xf0, 0xb3, 0x0d, 0xbe, 0xfd, 0xfa, 0xff, 0xbd,
  0x5a, 0x87, 0x30, 0x3e, 0x53, 0xc6, 0xa1, 0xbd, 0x48, 0x64, 0x88, 0x3d,
  0xc3, 0x0d, 0xd3, 0xbc, 0x78, 0xe5, 0xe5, 0x3d, 0xb7, 0x2d, 0xa1, 0xbd,
  0xe7, 0x6f, 0xca, 0xbd, 0xf5, 0xf6, 0xfb, 0x3d, 0xd5, 0x0e, 0x32, 0x3e,
  0xb5, 0xfa, 0xb8, 0xbd, 0x46, 0xef, 0x1a, 0x3e, 0x3a, 0xca, 0x02, 0x3d,
  0x24, 0x20, 0x7d, 0xbd, 0x7c, 0x0a, 0x18, 0x3e, 0x28, 0x50, 0x20, 0xbe,
  0xe6, 0xaa, 0xd6, 0xbc, 0xaa, 0x0a, 0xce, 0xbd, 0x06, 0xef, 0x2a, 0x3e,
  0xa4, 0xac, 0x0e, 0x3e, 0x80, 0x49, 0x17, 0x3e, 0xc7, 0x2d, 0x1b, 0x3e,
  0xfb, 0x7f, 0xf8, 0x38, 0x80, 0x58, 0x9e, 0xbd, 0x39, 0x80, 0x23, 0xbe,
  0x8d, 0x30, 0x24, 0xbe, 0xb5, 0x02, 0x1a, 0xbe, 0x20, 0xbd, 0xf7, 0xbd,
  0x77, 0xca, 0x2c, 0xbd, 0x5f, 0xb9, 0xa1, 0xbc, 0x2d, 0x4e, 0x04, 0xbe,
  0x38, 0xee, 0x49, 0x3e, 0xd0, 0x81, 0xd0, 0xbc, 0xc6, 0xd7, 0x6c, 0x3d,
  0xee, 0xe9, 0x24, 0xbe, 0x92, 0xb3, 0x4a, 0x3e, 0xce, 0xc0, 0x15, 0x3e,
  0xab, 0xbc, 0x89, 0x3d, 0xb6, 0xf1, 0x1d, 0xbe, 0x70, 0x66, 0xc5, 0x3c,
  0x3d, 0x82, 0x4a, 0x3d, 0xaf, 0x1e, 0xe4, 0xbd, 0x1a, 0xcb, 0xee, 0x3d,
  0xac, 0x48, 0x22, 0x3e, 0xfe, 0x63, 0x0c, 0x3c, 0x3f, 0xf3, 0x30, 0xbe,
  0x6c, 0xc3, 0x71, 0x3d, 0x6c, 0xde, 0xdb, 0x3d, 0xeb, 0x9a, 0x23, 0xbd,
  0x29, 0x92, 0xab, 0xbc, 0x82, 0xa7, 0x23, 0xbe, 0xf4, 0x63, 0xb8, 0x3d,
  0xbb, 0xc3, 0x21, 0x3d, 0xe4, 0x45, 0x57, 0x3e, 0x4e, 0xc9, 0x5f, 0x3e,
  0x04, 0x82, 0x9d, 0x3d, 0x40, 0xe0, 0xf6, 0xba, 0xbf, 0x82, 0x0c, 0x3e,
  0x35, 0x47, 0x22, 0x3d, 0x60, 0xae, 0x32, 0x3e, 0x63, 0x94, 0x9a, 0xbd,
  0xad, 0xc9, 0x79, 0xbb, 0xda, 0x1b, 0xcb, 0x3d, 0x30, 0x2b, 0xee, 0xbd,
  0xe7, 0x9d, 0x1d, 0xbe, 0xe6, 0x65, 0x82, 0xbd, 0xf1, 0xd1, 0x4a, 0x3e,
  0x30, 0x26, 0x95, 0x3c, 0x9c, 0x27, 0x96, 0xbd, 0xe5, 0x8e, 0x22, 0xbd,
  0x45, 0xeb, 0x27, 0x3c, 0x90, 0x40, 0xc0, 0x3d, 0xbb, 0xb0, 0xa0, 0xba,
  0x54, 0x1f, 0x80, 0xbd, 0x18, 0x7b, 0x3f, 0x3e, 0x0b, 0x5b, 0x9e, 0xbd,
  0x78, 0x94, 0xcc, 0xbd, 0xa4, 0xb0, 0xb8, 0x3c, 0xc0, 0xc2, 0xb9, 0x3d,
  0x58, 0x83, 0xef, 0x3c, 0xf3, 0x13, 0x10, 0x3d, 0x56, 0x98, 0x39, 0xbe,
  0x6a, 0x05, 0x0d, 0xbe, 0x7a, 0xf7, 0x00, 0x3e, 0xa2, 0xa6, 0x2f, 0x3e,
  0x65, 0x59, 0xad, 0xbd, 0xaf, 0xc5, 0x26, 0xbe, 0x88, 0x86, 0x18, 0xbd,
  0xc9, 0x1a, 0x83, 0x3e, 0x6e, 0x18, 0x05, 0xbe, 0xdb, 0x8d, 0x88, 0xbd,
  0x74, 0xc4, 0x8e, 0x3d, 0xd0, 0x9d, 0x0d, 0x3e, 0xd5, 0x2a, 0x57, 0xbd,
  0xd1, 0xf5, 0x74, 0x3e, 0x48, 0xa3, 0x99, 0x3c, 0x4c, 0xb2, 0xcd, 0x3d,
  0x11, 0x04, 0x4f, 0x3b, 0x5e, 0x92, 0x32, 0x3e, 0xd8, 0x40, 0x1e, 0xbe,
  0xa6, 0x77, 0x14, 0xbe, 0x60, 0x50, 0x31, 0xbe, 0xb6, 0xa4, 0x12, 0x3e,
  0xc0, 0x44, 0x50, 0x3b, 0xf1, 0x3e, 0x28, 0xbe, 0x42, 0x0b, 0xfc, 0x3d,
  0x7d, 0x44, 0x26, 0xbe, 0x68, 0x1f, 0xb0, 0x3c, 0x0d, 0xae, 0xfc, 0x3c,
  0xe7, 0x03, 0x37, 0xbe, 0x94, 0x90, 0xc4, 0xbd, 0x08, 0x71, 0x79, 0x3d,
  0xd5, 0x0f, 0x30, 0xbe, 0x83, 0xa1, 0x6e, 0x3d, 0x7d, 0xf5, 0xdb, 0xbc,
  0x6c, 0xc4, 0x57, 0xbd, 0x64, 0xa4, 0x4f, 0x3c, 0x72, 0xb6, 0xcb, 0x3c,
  0xe8, 0xe9, 0x93, 0xbd, 0x18, 0x5f, 0xae, 0x3c, 0x61, 0xcc, 0xc5, 0x3d,
  0x91, 0xf2, 0x0d, 0x3e, 0xaf, 0x30, 0x0c, 0x3e, 0x75, 0x47, 0x40, 0xbe,
  0x93, 0x04, 0x74, 0x3c, 0x3e, 0x92, 0x20, 0xbe, 0x66, 0xfe, 0x14, 0x3e,
  0x14, 0x68, 0x21, 0xbe, 0x8b, 0xc9, 0x9f, 0x3d, 0x4d, 0xee, 0x83, 0x3d,
  0x5d, 0x86, 0x2a, 0xbe, 0xb9, 0x8e, 0xad, 0xbd, 0xfe, 0xd6, 0x1d, 0xbe,
  0x0a, 0x50, 0x77, 0xbd, 0x9c, 0x54, 0xdd, 0xbd, 0x08, 0x47, 0x80, 0x3d,
  0x6a, 0x21, 0x8e, 0xbd, 0x49, 0x5f, 0xa2, 0x3d, 0xf1, 0x99, 0xe5, 0xbd,
  0xfe, 0x60, 0xb7, 0xbd, 0x45, 0x6f, 0xd0, 0xbd, 0x59, 0x88, 0x2f, 0xbd,
  0x18, 0x40, 0x14, 0xbe, 0x5c, 0x64, 0xed, 0xbd, 0x15, 0x05, 0x6c, 0xbc,
  0x5f, 0xc0, 0x9c, 0xbd, 0xdc, 0x46, 0xbd, 0xbb, 0xf0, 0x60, 0x25, 0xbd,
  0x38, 0xc5, 0xa1, 0x3d, 0x3e, 0xe1, 0xaf, 0xbd, 0x47, 0x45, 0x28, 0xbd,
  0x9a, 0x31, 0xa7, 0xbd, 0x7e, 0x06, 0xba, 0x3d, 0xc8, 0x83, 0xac, 0x3d,
  0x6b, 0x7b, 0xb9, 0x3d, 0xe8, 0xab, 0x17, 0xbe, 0x6b, 0x83, 0xdf, 0xbc,
  0xa9, 0xd6, 0x8c, 0xbd, 0xd1, 0xd9, 0x0c, 0xbd, 0xf8, 0xaf, 0xd1, 0xbc,
  0xdb, 0x45, 0xce, 0xbc, 0xd0, 0xf8, 0x09, 0x3d, 0xf9, 0x38, 0xa8, 0x3c,
  0x66, 0x87, 0x23, 0xbe, 0xec, 0xd6, 0x0f, 0xbe, 0x0e, 0x3f, 0x98, 0xbd,
  0x84, 0xfe, 0xe6, 0x3d, 0x19, 0xac, 0x13, 0xbe, 0x2f, 0xa4, 0x2e, 0xbe,
  0x2e, 0xcc, 0x55, 0xbd, 0x8c, 0xdd, 0x43, 0xbe, 0x65, 0x4a, 0x16, 0xbe,
  0x54, 0x1a, 0x91, 0x3d, 0x87, 0x7c, 0x9e, 0x3d, 0x49, 0x51, 0x84, 0xbd,
  0x4c, 0x4a, 0x46, 0x3e, 0x96, 0xd1, 0x30, 0xbe, 0x2a, 0x4a, 0x25, 0x3d,
  0xbf, 0x17, 0x16, 0x3e, 0x4c, 0xd1, 0x1c, 0xbe, 0x99, 0xdf, 0xb4, 0x3d,
  0x75, 0x1a, 0xb1, 0xbd, 0x2f, 0x74, 0x0e, 0xbe, 0x63, 0x81, 0x0f, 0xbe,
  0xbb, 0x02, 0x2f, 0xbe, 0x58, 0x4d, 0x47, 0x3d, 0xaf, 0xaa, 0x35, 0xbe,
  0xcc, 0xe2, 0x9a, 0xbd, 0x57, 0xd2, 0x00, 0x3e, 0xc3, 0x8a, 0x09, 0x3e,
  0x52, 0xc1, 0x15, 0xbd, 0x58, 0x5d, 0xc2, 0x3c, 0x31, 0x3c, 0x26, 0x3e,
  0x87, 0x0d, 0x44, 0xbe, 0xda, 0x87, 0xff, 0x3d, 0x44, 0x99, 0xe3, 0x3d,
  0x9d, 0xff, 0x0d, 0xbc, 0x31, 0x91, 0x58, 0xbe, 0x8d, 0x97, 0xbc, 0x3d,
  0x82, 0x30, 0xa0, 0xbd, 0xe7, 0x61, 0xea, 0xbc, 0x02, 0xc0, 0x7e, 0x3c,
  0x52, 0x86, 0xa3, 0x3d, 0x4c, 0xd0, 0x42, 0xbd, 0x4c, 0xaf, 0x7d, 0x3d,
  0x32, 0x2d, 0x3c, 0x3d, 0x3f, 0x68, 0xef, 0xbd, 0xa0, 0x27, 0xac, 0x3d,
  0xad, 0x02, 0x34, 0xbe, 0x32, 0x16, 0x2b, 0x3e, 0x8d, 0x99, 0x20, 0xbe,
  0x98, 0x63, 0x87, 0x3d, 0x7b, 0xa3, 0x1b, 0x3e, 0xc0, 0xe1, 0xb3, 0xbc,
  0xdf, 0xfd, 0x77, 0xbd, 0x94, 0x31, 0x07, 0xbe, 0xf7, 0xea, 0xac, 0x3d,
  0x4d, 0x70, 0x61, 0xbd, 0x7c, 0xa1, 0xe6, 0xbc, 0xc0, 0x6d, 0xf7, 0x3b,
  0x08, 0x0b, 0x49, 0xbe, 0x68, 0x55, 0xba, 0x3d, 0x85, 0xdf, 0x36, 0xbe,
  0x4e, 0x6e, 0x4a, 0xbe, 0xd1, 0x69, 0x2f, 0xbe, 0x9d, 0xd9, 0xe5, 0xbd,
  0x00, 0xf1, 0x1c, 0xbc, 0x80, 0xfb, 0xd3, 0x3c, 0x8e, 0xc1, 0x4b, 0xbd,
  0x23, 0xad, 0xee, 0xbb, 0xc5, 0x70, 0xdd, 0xbc, 0x48, 0x7e, 0xb4, 0x3d,
  0x13, 0x7b, 0xf2, 0xbd, 0x6c, 0x42, 0x03, 0xbe, 0x9d, 0x2f, 0x9c, 0xbc,
  0x7c, 0x58, 0x2a, 0xbe, 0xb9, 0x23, 0x40, 0xbe, 0x3a, 0x97, 0xa9, 0x3d,
  0x1b, 0x33, 0xe3, 0x3c, 0x72, 0xe9, 0x28, 0xbe, 0x61, 0xac, 0x75, 0xbd,
  0xa1, 0xc4, 0xba, 0x3c, 0xe0, 0xec, 0x42, 0x3b, 0x50, 0xd8, 0xbe, 0x3c,
  0xc3, 0xaf, 0x3f, 0xbe, 0xb1, 0x1a, 0xef, 0xbc, 0x15, 0x77, 0xd9, 0xbd,
  0x50, 0xce, 0xe5, 0xbc, 0x8d, 0xa1, 0x1c, 0xbe, 0xcf, 0xd9, 0xd8, 0xbd,
  0x05, 0x9d, 0xa0, 0x3d, 0xb4, 0xdd, 0x9d, 0xbd, 0xad, 0x3e, 0x1d, 0xbd,
  0xf9, 0x1e, 0x81, 0x3d, 0xba, 0xd5, 0xd8, 0xbd, 0x20, 0x7a, 0xa4, 0x3d,
  0xa0, 0xd2, 0x33, 0x3d, 0xbd, 0x0a, 0xfb, 0xbd, 0x15, 0xc5, 0x51, 0x3d,
  0xf0, 0x90, 0x10, 0x3e, 0x06, 0x11, 0x22, 0x3e, 0x25, 0x20, 0x8f, 0x3d,
  0x60, 0x54, 0x0b, 0x3e, 0x84, 0xdb, 0x06, 0x3e, 0x59, 0x6a, 0xef, 0x3d,
  0x83, 0x54, 0x2a, 0x3e, 0xe2, 0x74, 0x07, 0x3e, 0xf8, 0x1b, 0x8a, 0xbd,
  0x57, 0x2e, 0x59, 0xbe, 0x7a, 0x3d, 0xbe, 0xbb, 0x43, 0xe9, 0x89, 0x3d,
  0xa8, 0xda, 0x41, 0x3e, 0xee, 0x60, 0x05, 0x3e, 0xf7, 0xf0, 0x40, 0xbe,
  0x8b, 0x20, 0x44, 0x3e, 0xb0, 0x8e, 0x35, 0x3e, 0xf3, 0x2b, 0x9e, 0x3c,
  0xec, 0x4c, 0x0d, 0xbe, 0x5a, 0xf6, 0x08, 0xbe, 0x94, 0xbb, 0xdc, 0x3d,
  0x46, 0xd4, 0x34, 0xbe, 0xfa, 0x3a, 0x97, 0x3d, 0xc9, 0x77, 0xeb, 0xbd,
  0xc1, 0x85, 0x12, 0xbe, 0x72, 0x5c, 0x48, 0xbe, 0x4a, 0x27, 0xba, 0x3d,
  0xfc, 0x76, 0xef, 0xbd, 0x00, 0xbb, 0xc2, 0x3b, 0x43, 0xb6, 0x0e, 0x3e,
  0xbc, 0x0d, 0xc4, 0x3c, 0xb5, 0x4d, 0x2e, 0xbd, 0xb0, 0xd5, 0x1c, 0x3e,
  0xec, 0x70, 0xe2, 0x3c, 0x46, 0x58, 0x00, 0xbe, 0x4b, 0x6a, 0x9a, 0xbd,
  0x3c, 0x97, 0x54, 0xbd, 0x19, 0xfa, 0x45, 0xbe, 0xb6, 0x34, 0x6d, 0x3d,
  0x10, 0x74, 0x31, 0xbd, 0x64, 0xbd, 0x13, 0x3d, 0xad, 0x29, 0x3c, 0x3d,
  0xd9, 0xa7, 0x5e, 0xb7, 0x47, 0xeb, 0x40, 0x3e, 0xb0, 0x0b, 0xbe, 0x3d,
  0x25, 0x95, 0x82, 0xbd, 0x9f, 0x23, 0xbc, 0xbd, 0x3b, 0x16, 0x4e, 0x3d,
  0xb2, 0x32, 0x0e, 0x3e, 0x61, 0xd1, 0xfc, 0x3d, 0xd3, 0xc5, 0xf2, 0x3d,
  0x79, 0x5f, 0xf4, 0x3d, 0xb8, 0xf4, 0x94, 0xbd, 0x9b, 0x8a, 0x1d, 0xbd,
  0xc5, 0xad, 0xcc, 0x3d, 0xb1, 0xaf, 0x87, 0x3d, 0x0a, 0x46, 0x1f, 0x3e,
  0xfb, 0x3b, 0x5f, 0xbe, 0xb9, 0xe8, 0x0f, 0x3d, 0x37, 0x35, 0xf8, 0xbc,
  0x84, 0x46, 0x51, 0xbd, 0x27, 0xf7, 0x0a, 0xbd, 0x83, 0xc3, 0x9b, 0xbd,
  0xe6, 0xa8, 0xf8, 0x3d, 0xac, 0x72, 0x98, 0xbd, 0xdb, 0xa8, 0xad, 0x3d,
  0x1c, 0xe7, 0x2b, 0x3e, 0x37, 0x32, 0x02, 0x3e, 0x70, 0x68, 0x84, 0xbc,
  0xb4, 0xc6, 0x48, 0x3d, 0xd0, 0x8c, 0x26, 0xbe, 0x79, 0x33, 0xbd, 0x3d,
  0xb6, 0x0d, 0x0d, 0x3e, 0xb9, 0x52, 0x23, 0x3e, 0x02, 0x68, 0x25, 0x3e,
  0xd6, 0x89, 0x05, 0xbe, 0x90, 0xd6, 0x3c, 0xbc, 0x2e, 0x99, 0x32, 0x3e,
  0x54, 0x6a, 0xba, 0xbd, 0xfe, 0x96, 0x45, 0xbe, 0x84, 0xd9, 0x05, 0x3e,
  0x68, 0x03, 0x36, 0x3e, 0xc8, 0x6a, 0xa0, 0xbd, 0xde, 0xf7, 0xad, 0xbc,
  0x48, 0x1d, 0x79, 0xbd, 0x5e, 0xb0, 0x29, 0xbe, 0xaa, 0xfe, 0x14, 0xbe,
  0x6d, 0x3b, 0x50, 0xbe, 0x90, 0x9c, 0x7a, 0xbc, 0x51, 0x07, 0x12, 0x3c,
  0x5e, 0xbc, 0x02, 0x3e, 0x44, 0xb4, 0xfd, 0xbd, 0xec, 0x3f, 0xb3, 0x3d,
  0x82, 0x4a, 0xbc, 0x3d, 0x1a, 0x9e, 0x4e, 0x3d, 0x65, 0x91, 0xc7, 0xbd,
  0x14, 0x4e, 0x24, 0x3e, 0x85, 0xc7, 0x53, 0xbd, 0x40, 0xce, 0x98, 0x3d,
  0x93, 0xd2, 0x26, 0xbe, 0x04, 0x6f, 0x15, 0x3e, 0xef, 0x19, 0x4d, 0xbe,
  0x15, 0x6a, 0xaf, 0xbd, 0x60, 0x3f, 0x02, 0x3e, 0x0f, 0x76, 0x2c, 0xbe,
  0x1e, 0x76, 0xdf, 0x3c, 0x6d, 0x24, 0x0c, 0xbe, 0x61, 0xab, 0x2c, 0xbe,
  0x04, 0xae, 0xd6, 0x3d, 0x7f, 0x74, 0x54, 0xbe, 0x7a, 0x49, 0x09, 0xbe,
  0x90, 0xca, 0xdb, 0x3c, 0xb4, 0x34, 0x0c, 0x3e, 0x65, 0xba, 0x72, 0x3d,
  0x0a, 0x0f, 0xcb, 0xbd, 0x61, 0x15, 0x16, 0xbc, 0xb8, 0x57, 0x58, 0x3d,
  0xb0, 0xc6, 0x15, 0xbd, 0xa8, 0xd2, 0x18, 0xbd, 0x75, 0x51, 0x43, 0x3e,
  0xcc, 0xda, 0xcb, 0x3d, 0x3e, 0x84, 0x89, 0x3d, 0xcf, 0x91, 0x45, 0xbe,
  0xa0, 0x13, 0x41, 0xbe, 0x9f, 0x4e, 0x1e, 0xbe, 0x80, 0xa6, 0x24, 0x3d,
  0x86, 0x41, 0x10, 0x3e, 0xdc, 0x73, 0xf7, 0xbd, 0xc4, 0x98, 0x2a, 0xbe,
  0x30, 0x3c, 0x30, 0xbc, 0xdc, 0x86, 0x1d, 0xbe, 0x09, 0xfb, 0x38, 0xbe,
  0x40, 0x0b, 0x0b, 0xbd, 0x8e, 0x69, 0x83, 0xbd, 0x00, 0x68, 0x24, 0xb9,
  0x3c, 0x3a, 0x59, 0xbd, 0xb4, 0xff, 0x15, 0x3d, 0xac, 0xd5, 0x6a, 0xbd,
  0x40, 0x4b, 0x42, 0x3d, 0xcb, 0xf8, 0xb2, 0xbd, 0x38, 0x09, 0xb5, 0x3c,
  0x64, 0xdd, 0xca, 0x3d, 0xea, 0x0a, 0x2d, 0x3e, 0xa3, 0x1a, 0xfb, 0xbd,
  0x78, 0x7e, 0x8b, 0x3d, 0x43, 0x80, 0xbc, 0xbd, 0x10, 0xf2, 0x76, 0x3c,
  0x08, 0x2a, 0xcd, 0xbc, 0x9c, 0xda, 0x22, 0x3e, 0x9e, 0xe2, 0x4d, 0xbe,
  0xa4, 0x91, 0xb3, 0x3d, 0xd6, 0x1a, 0x98, 0xbd, 0x4a, 0x46, 0x18, 0x3e,
  0x14, 0xde, 0x21, 0x3d, 0x2b, 0x46, 0x05, 0xbe, 0xfc, 0x8c, 0x43, 0x3e,
  0xe4, 0x46, 0x13, 0xbd, 0xbc, 0x62, 0x95, 0x3d, 0x7a, 0x02, 0x90, 0xbd,
  0xd0, 0x74, 0x40, 0x3e, 0xe4, 0x30, 0x03, 0xbe, 0x10, 0xbc, 0xb1, 0xbc,
  0xb8, 0xf2, 0x05, 0x3d, 0x2a, 0x59, 0xaf, 0xbd, 0xf4, 0xba, 0x2c, 0x3e,
  0xc0, 0x61, 0xe3, 0x3b, 0x32, 0x1a, 0x93, 0xbd, 0xdc, 0xfe, 0x3b, 0x3e,
  0xf8, 0x35, 0x94, 0x3d, 0xb4, 0xc4, 0x49, 0x3e, 0x1f, 0x8c, 0x1a, 0xbe,
  0xd0, 0x42, 0x45, 0xbc, 0xe8, 0x10, 0x13, 0x3e, 0xac, 0x29, 0x21, 0xbd,
  0x2b, 0x97, 0x22, 0xbe, 0x3e, 0x7d, 0x1e, 0x3e, 0x68, 0x8f, 0xfe, 0x3d,
  0xf4, 0x74, 0xf2, 0x3d, 0xfe, 0x02, 0x0f, 0xbe, 0x9d, 0x49, 0x25, 0xbe,
  0xf0, 0x01, 0x5b, 0x3d, 0x8c, 0x50, 0x2b, 0xbe, 0xd4, 0xbd, 0x94, 0xbd,
  0x40, 0xab, 0xdc, 0x3d, 0x10, 0x3c, 0xbf, 0x3d, 0xbd, 0xd1, 0x13, 0xbe,
  0x70, 0x04, 0x37, 0x3e, 0xb0, 0x9b, 0xef, 0xbc, 0x00, 0x47, 0xd7, 0x3a,
  0x89, 0xf3, 0x3d, 0xbe, 0x4a, 0x12, 0x4a, 0x3e, 0x9c, 0x75, 0x08, 0x3e,
  0xec, 0x4b, 0x4c, 0xbe, 0xa0, 0x2f, 0x38, 0xbe, 0xd8, 0x41, 0x0a, 0x3d,
  0xb0, 0x70, 0x2a, 0xbe, 0x00, 0xa6, 0x6e, 0x3d, 0x94, 0xb9, 0x20, 0x3d,
  0x76, 0xe9, 0xde, 0xbd, 0x4e, 0x5e, 0x99, 0xbd, 0x0a, 0x8f, 0x16, 0xbe,
  0xc7, 0x57, 0x48, 0xbe, 0x1c, 0xe5, 0xa2, 0x3d, 0xa6, 0xf6, 0x1f, 0x3e,
  0x90, 0x17, 0x7a, 0xbd, 0x00, 0x5e, 0x78, 0x3b, 0x60, 0xda, 0x88, 0x3d,
  0xac, 0xc3, 0x9e, 0x3d, 0xfc, 0xb1, 0xe5, 0x3d, 0x5d, 0xa7, 0xa7, 0xbd,
  0xea, 0xbf, 0x21, 0x3e, 0x40, 0x3c, 0x29, 0x3e, 0x3c, 0x65, 0xf1, 0x3d,
  0x6c, 0xa6, 0x0b, 0xbe, 0x5e, 0x08, 0xf1, 0xbd, 0x24, 0xb0, 0x94, 0xbd,
  0x00, 0x54, 0xfe, 0xb9, 0xbc, 0x1f, 0xf2, 0xbd, 0xee, 0x7a, 0x88, 0xbd,
  0xc0, 0xbd, 0xc0, 0xbc, 0x30, 0x1b, 0xeb, 0xbc, 0x78, 0x30, 0xd6, 0x3c,
  0xf0, 0x95, 0xf9, 0x3d, 0xc7, 0xcc, 0x1b, 0xbe, 0x8c, 0x3e, 0x32, 0xbe,
  0x81, 0xf2, 0x21, 0xbe, 0xc3, 0x3c, 0xb0, 0xbd, 0x20, 0x9e, 0x99, 0x3d,
  0x38, 0x1f, 0x4a, 0xbd, 0xf8, 0xbd, 0xf1, 0x3c, 0xe8, 0xfe, 0xd6, 0xbd,
  0x38, 0x9a, 0xb9, 0xbc, 0xd8, 0xa0, 0x43, 0x3d, 0x30, 0xd4, 0x19, 0x3e,
  0x48, 0xe7, 0xfb, 0x3d, 0x34, 0xc4, 0xfc, 0x3d, 0x9c, 0x28, 0x30, 0xbd,
  0xda, 0x15, 0x2f, 0xbe, 0xb2, 0x7f, 0xb5, 0xbd, 0x4e, 0xf9, 0x06, 0x3e,
  0xfc, 0x9c, 0x00, 0x3e, 0x33, 0x00, 0x02, 0xbe, 0xbe, 0x86, 0x2e, 0x3e,
  0x70, 0xd5, 0xa3, 0xbc, 0xdc, 0x2c, 0xce, 0x3d, 0x2e, 0x81, 0xd3, 0xbd,
  0x04, 0xb7, 0x3c, 0xbe, 0xd8, 0x30, 0xb1, 0xbd, 0xa0, 0x33, 0xe1, 0xbc,
  0xd2, 0x82, 0x0a, 0xbe, 0x30, 0x2d, 0x24, 0x3e, 0xf6, 0xc6, 0x42, 0x3e,
  0x88, 0x4b, 0x9a, 0x3d, 0xd0, 0x5b, 0xcc, 0x3d, 0x98, 0x05, 0x02, 0xbd,
  0x56, 0x31, 0x2f, 0x3e, 0xa8, 0x31, 0x5f, 0x3d, 0x04, 0x7f, 0xcd, 0xbd,
  0xd0, 0xa6, 0x09, 0x3e, 0xb8, 0x84, 0x24, 0x3e, 0xfc, 0x1f, 0x8f, 0xbd,
  0x00, 0xfe, 0x38, 0x3c, 0x20, 0x03, 0xca, 0x3b, 0x20, 0x23, 0x10, 0xbd,
  0x04, 0x93, 0x13, 0x3e, 0x50, 0xae, 0xfe, 0xbc, 0x13, 0x55, 0xbe, 0xbd,
  0x08, 0x0b, 0x92, 0x3d, 0x10, 0x58, 0x1f, 0xbd, 0x00, 0x00, 0x00, 0x00,
  0x96, 0xff, 0xff, 0xff, 0x04, 0x00, 0x00, 0x00, 0x08, 0x00, 0x00, 0x00,
  0xff, 0xff, 0xff, 0xff, 0x90, 0x00, 0x00, 0x00, 0x00, 0x00, 0x00, 0x00,
  0x00, 0x00, 0x00, 0x00, 0x00, 0x00, 0x00, 0x00, 0xb6, 0xff, 0xff, 0xff,
  0x04, 0x00, 0x00, 0x00, 0x10, 0x00, 0x00, 0x00, 0x45, 0x78, 0x8e, 0xbb,
  0xb0, 0x69, 0x5c, 0xb8, 0xd6, 0xe0, 0x87, 0x3c, 0x00, 0x00, 0x00, 0x00,
  0x00, 0x00, 0x00, 0x00, 0xd6, 0xff, 0xff, 0xff, 0x04, 0x00, 0x00, 0x00,
  0x10, 0x00, 0x00, 0x00, 0xa2, 0x24, 0xd7, 0x3c, 0x79, 0x1f, 0xbf, 0xbc,
  0xef, 0xd6, 0x4f, 0xbc, 0x00, 0x00, 0x00, 0x00, 0x00, 0x00, 0x00, 0x00,
  0x00, 0x00, 0x00, 0x00, 0x00, 0x00, 0x00, 0x00, 0x00, 0x00, 0x06, 0x00,
  0x08, 0x00, 0x04, 0x00, 0x06, 0x00, 0x00, 0x00, 0x04, 0x00, 0x00, 0x00,
  0x04, 0x00, 0x00, 0x00, 0xf7, 0x04, 0x9d, 0x3c, 0x00, 0x00, 0x00, 0x00,
  0x00, 0x00, 0x00, 0x00, 0x24, 0xfa, 0xff, 0xff, 0x00, 0x00, 0x00, 0x00,
  0x00, 0x00, 0x00, 0x00, 0x00, 0x00, 0x00, 0x00, 0x34, 0xfa, 0xff, 0xff,
  0x00, 0x00, 0x00, 0x00, 0x0f, 0x00, 0x00, 0x00, 0x4d, 0x4c, 0x49, 0x52,
  0x20, 0x43, 0x6f, 0x6e, 0x76, 0x65, 0x72, 0x74, 0x65, 0x64, 0x2e, 0x00,
  0x01, 0x00, 0x00, 0x00, 0x14, 0x00, 0x00, 0x00, 0x00, 0x00, 0x0e, 0x00,
  0x18, 0x00, 0x04, 0x00, 0x08, 0x00, 0x0c, 0x00, 0x10, 0x00, 0x14, 0x00,
  0x0e, 0x00, 0x00, 0x00, 0x60, 0x01, 0x00, 0x00, 0x54, 0x01, 0x00, 0x00,
  0x48, 0x01, 0x00, 0x00, 0x14, 0x00, 0x00, 0x00, 0x04, 0x00, 0x00, 0x00,
  0x04, 0x00, 0x00, 0x00, 0x6d, 0x61, 0x69, 0x6e, 0x00, 0x00, 0x00, 0x00,
  0x04, 0x00, 0x00, 0x00, 0xe4, 0x00, 0x00, 0x00, 0xac, 0x00, 0x00, 0x00,
  0x5c, 0x00, 0x00, 0x00, 0x14, 0x00, 0x00, 0x00, 0x00, 0x00, 0x0e, 0x00,
  0x18, 0x00, 0x08, 0x00, 0x0c, 0x00, 0x10, 0x00, 0x07, 0x00, 0x14, 0x00,
  0x0e, 0x00, 0x00, 0x00, 0x00, 0x00, 0x00, 0x08, 0x02, 0x00, 0x00, 0x00,
  0x18, 0x00, 0x00, 0x00, 0x0c, 0x00, 0x00, 0x00, 0x04, 0x00, 0x00, 0x00,
  0xc8, 0xfa, 0xff, 0xff, 0x01, 0x00, 0x00, 0x00, 0x0b, 0x00, 0x00, 0x00,
  0x03, 0x00, 0x00, 0x00, 0x0a, 0x00, 0x00, 0x00, 0x06, 0x00, 0x00, 0x00,
  0x01, 0x00, 0x00, 0x00, 0x00, 0x00, 0x0e, 0x00, 0x1a, 0x00, 0x08, 0x00,
  0x0c, 0x00, 0x10, 0x00, 0x07, 0x00, 0x14, 0x00, 0x0e, 0x00, 0x00, 0x00,
  0x00, 0x00, 0x00, 0x08, 0x02, 0x00, 0x00, 0x00, 0x24, 0x00, 0x00, 0x00,
  0x18, 0x00, 0x00, 0x00, 0x0c, 0x00, 0x00, 0x00, 0x00, 0x00, 0x06, 0x00,
  0x08, 0x00, 0x07, 0x00, 0x06, 0x00, 0x00, 0x00, 0x00, 0x00, 0x00, 0x01,
  0x01, 0x00, 0x00, 0x00, 0x0a, 0x00, 0x00, 0x00, 0x03, 0x00, 0x00, 0x00,
  0x09, 0x00, 0x00, 0x00, 0x05, 0x00, 0x00, 0x00, 0x02, 0x00, 0x00, 0x00,
  0x00, 0x00, 0x0a, 0x00, 0x10, 0x00, 0x04, 0x00, 0x08, 0x00, 0x0c, 0x00,
  0x0a, 0x00, 0x00, 0x00, 0x01, 0x00, 0x00, 0x00, 0x10, 0x00, 0x00, 0x00,
  0x04, 0x00, 0x00, 0x00, 0x01, 0x00, 0x00, 0x00, 0x09, 0x00, 0x00, 0x00,
  0x02, 0x00, 0x00, 0x00, 0x08, 0x00, 0x00, 0x00, 0x04, 0x00, 0x00, 0x00,
  0x00, 0x00, 0x0e, 0x00, 0x14, 0x00, 0x00, 0x00, 0x08, 0x00, 0x0c, 0x00,
  0x07, 0x00, 0x10, 0x00, 0x0e, 0x00, 0x00, 0x00, 0x00, 0x00, 0x00, 0x01,
  0x30, 0x00, 0x00, 0x00, 0x24, 0x00, 0x00, 0x00, 0x10, 0x00, 0x00, 0x00,
  0x0c, 0x00, 0x10, 0x00, 0x06, 0x00, 0x08, 0x00, 0x0c, 0x00, 0x07, 0x00,
  0x0c, 0x00, 0x00, 0x00, 0x00, 0x00, 0x01, 0x01, 0x01, 0x00, 0x00, 0x00,
  0x01, 0x00, 0x00, 0x00, 0x01, 0x00, 0x00, 0x00, 0x08, 0x00, 0x00, 0x00,
  0x03, 0x00, 0x00, 0x00, 0x00, 0x00, 0x00, 0x00, 0x07, 0x00, 0x00, 0x00,
  0x03, 0x00, 0x00, 0x00, 0x01, 0x00, 0x00, 0x00, 0x0b, 0x00, 0x00, 0x00,
  0x01, 0x00, 0x00, 0x00, 0x00, 0x00, 0x00, 0x00, 0x0c, 0x00, 0x00, 0x00,
  0x04, 0x04, 0x00, 0x00, 0xb8, 0x03, 0x00, 0x00, 0x70, 0x03, 0x00, 0x00,
  0x38, 0x03, 0x00, 0x00, 0xec, 0x02, 0x00, 0x00, 0x94, 0x02, 0x00, 0x00,
  0x4c, 0x02, 0x00, 0x00, 0xf8, 0x01, 0x00, 0x00, 0x48, 0x01, 0x00, 0x00,
  0xec, 0x00, 0x00, 0x00, 0x5c, 0x00, 0x00, 0x00, 0x04, 0x00, 0x00, 0x00,
  0x40, 0xfc, 0xff, 0xff, 0x44, 0x00, 0x00, 0x00, 0x0c, 0x00, 0x00, 0x00,
  0x1c, 0x00, 0x00, 0x00, 0x14, 0x00, 0x00, 0x00, 0x04, 0x00, 0x00, 0x00,
  0x02, 0x00, 0x00, 0x00, 0xff, 0xff, 0xff, 0xff, 0x01, 0x00, 0x00, 0x00,
  0x24, 0xfc, 0xff, 0xff, 0x19, 0x00, 0x00, 0x00, 0x53, 0x74, 0x61, 0x74,
  0x65, 0x66, 0x75, 0x6c, 0x50, 0x61, 0x72, 0x74, 0x69, 0x74, 0x69, 0x6f,
  0x6e, 0x65, 0x64, 0x43, 0x61, 0x6c, 0x6c, 0x3a, 0x30, 0x00, 0x00, 0x00,
  0x02, 0x00, 0x00, 0x00, 0x01, 0x00, 0x00, 0x00, 0x01, 0x00, 0x00, 0x00,
  0x94, 0xfc, 0xff, 0xff, 0x7c, 0x00, 0x00, 0x00, 0x0b, 0x00, 0x00, 0x00,
  0x1c, 0x00, 0x00, 0x00, 0x14, 0x00, 0x00, 0x00, 0x04, 0x00, 0x00, 0x00,
  0x02, 0x00, 0x00, 0x00, 0xff, 0xff, 0xff, 0xff, 0x04, 0x00, 0x00, 0x00,
  0x78, 0xfc, 0xff, 0xff, 0x52, 0x00, 0x00, 0x00, 0x73, 0x65, 0x71, 0x75,
  0x65, 0x6e, 0x74, 0x69, 0x61, 0x6c, 0x5f, 0x32, 0x2f, 0x64, 0x65, 0x6e,
  0x73, 0x65, 0x5f, 0x34, 0x2f, 0x4d, 0x61, 0x74, 0x4d, 0x75, 0x6c, 0x3b,
  0x73, 0x65, 0x71, 0x75, 0x65, 0x6e, 0x74, 0x69, 0x61, 0x6c, 0x5f, 0x32,
  0x2f, 0x64, 0x65, 0x6e, 0x73, 0x65, 0x5f, 0x34, 0x2f, 0x52, 0x65, 0x6c,
  0x75, 0x3b, 0x73, 0x65, 0x71, 0x75, 0x65, 0x6e, 0x74, 0x69, 0x61, 0x6c,
  0x5f, 0x32, 0x2f, 0x64, 0x65, 0x6e, 0x73, 0x65, 0x5f, 0x34, 0x2f, 0x42,
  0x69, 0x61, 0x73, 0x41, 0x64, 0x64, 0x00, 0x00, 0x02, 0x00, 0x00, 0x00,
  0x01, 0x00, 0x00, 0x00, 0x04, 0x00, 0x00, 0x00, 0x20, 0xfd, 0xff, 0xff,
  0x48, 0x00, 0x00, 0x00, 0x0a, 0x00, 0x00, 0x00, 0x1c, 0x00, 0x00, 0x00,
  0x14, 0x00, 0x00, 0x00, 0x04, 0x00, 0x00, 0x00, 0x02, 0x00, 0x00, 0x00,
  0xff, 0xff, 0xff, 0xff, 0x90, 0x00, 0x00, 0x00, 0x04, 0xfd, 0xff, 0xff,
  0x1e, 0x00, 0x00, 0x00, 0x73, 0x65, 0x71, 0x75, 0x65, 0x6e, 0x74, 0x69,
  0x61, 0x6c, 0x5f, 0x32, 0x2f, 0x66, 0x6c, 0x61, 0x74, 0x74, 0x65, 0x6e,
  0x5f, 0x32, 0x2f, 0x52, 0x65, 0x73, 0x68, 0x61, 0x70, 0x65, 0x00, 0x00,
  0x02, 0x00, 0x00, 0x00, 0x01, 0x00, 0x00, 0x00, 0x90, 0x00, 0x00, 0x00,
  0x78, 0xfd, 0xff, 0xff, 0x94, 0x00, 0x00, 0x00, 0x09, 0x00, 0x00, 0x00,
  0x24, 0x00, 0x00, 0x00, 0x1c, 0x00, 0x00, 0x00, 0x04, 0x00, 0x00, 0x00,
  0x04, 0x00, 0x00, 0x00, 0xff, 0xff, 0xff, 0xff, 0x06, 0x00, 0x00, 0x00,
  0x06, 0x00, 0x00, 0x00, 0x04, 0x00, 0x00, 0x00, 0x64, 0xfd, 0xff, 0xff,
  0x63, 0x00, 0x00, 0x00, 0x73, 0x65, 0x71, 0x75, 0x65, 0x6e, 0x74, 0x69,
  0x61, 0x6c, 0x5f, 0x32, 0x2f, 0x63, 0x6f, 0x6e, 0x76, 0x32, 0x64, 0x5f,
  0x32, 0x2f, 0x52, 0x65, 0x6c, 0x75, 0x3b, 0x73, 0x65, 0x71, 0x75, 0x65,
  0x6e, 0x74, 0x69, 0x61, 0x6c, 0x5f, 0x32, 0x2f, 0x63, 0x6f, 0x6e, 0x76,
  0x32, 0x64, 0x5f, 0x32, 0x2f, 0x42, 0x69, 0x61, 0x73, 0x41, 0x64, 0x64,
  0x3b, 0x73, 0x65, 0x71, 0x75, 0x65, 0x6e, 0x74, 0x69, 0x61, 0x6c, 0x5f,
  0x32, 0x2f, 0x63, 0x6f, 0x6e, 0x76, 0x32, 0x64, 0x5f, 0x32, 0x2f, 0x43,
  0x6f, 0x6e, 0x76, 0x32, 0x44, 0x3b, 0x63, 0x6f, 0x6e, 0x76, 0x32, 0x64,
  0x5f, 0x32, 0x2f, 0x62, 0x69, 0x61, 0x73, 0x00, 0x04, 0x00, 0x00, 0x00,
  0x01, 0x00, 0x00, 0x00, 0x06, 0x00, 0x00, 0x00, 0x06, 0x00, 0x00, 0x00,
  0x04, 0x00, 0x00, 0x00, 0x66, 0xfe, 0xff, 0xff, 0x38, 0x00, 0x00, 0x00,
  0x08, 0x00, 0x00, 0x00, 0x0c, 0x00, 0x00, 0x00, 0x04, 0x00, 0x00, 0x00,
  0xf8, 0xfd, 0xff, 0xff, 0x1c, 0x00, 0x00, 0x00, 0x73, 0x65, 0x71, 0x75,
  0x65, 0x6e, 0x74, 0x69, 0x61, 0x6c, 0x5f, 0x32, 0x2f, 0x63, 0x6f, 0x6e,
  0x76, 0x32, 0x64, 0x5f, 0x32, 0x2f, 0x43, 0x6f, 0x6e, 0x76, 0x32, 0x44,
  0x00, 0x00, 0x00, 0x00, 0x04, 0x00, 0x00, 0x00, 0x04, 0x00, 0x00, 0x00,
  0x01, 0x00, 0x00, 0x00, 0x01, 0x00, 0x00, 0x00, 0x01, 0x00, 0x00, 0x00,
  0xb6, 0xfe, 0xff, 0xff, 0x34, 0x00, 0x00, 0x00, 0x07, 0x00, 0x00, 0x00,
  0x0c, 0x00, 0x00, 0x00, 0x04, 0x00, 0x00, 0x00, 0x48, 0xfe, 0xff, 0xff,
  0x1b, 0x00, 0x00, 0x00, 0x73, 0x65, 0x71, 0x75, 0x65, 0x6e, 0x74, 0x69,
  0x61, 0x6c, 0x5f, 0x32, 0x2f, 0x64, 0x65, 0x6e, 0x73, 0x65, 0x5f, 0x35,
  0x2f, 0x4d, 0x61, 0x74, 0x4d, 0x75, 0x6c, 0x00, 0x02, 0x00, 0x00, 0x00,
  0x01, 0x00, 0x00, 0x00, 0x04, 0x00, 0x00, 0x00, 0xfa, 0xfe, 0xff, 0xff,
  0x34, 0x00, 0x00, 0x00, 0x06, 0x00, 0x00, 0x00, 0x0c, 0x00, 0x00, 0x00,
  0x04, 0x00, 0x00, 0x00, 0x8c, 0xfe, 0xff, 0xff, 0x1b, 0x00, 0x00, 0x00,
  0x73, 0x65, 0x71, 0x75, 0x65, 0x6e, 0x74, 0x69, 0x61, 0x6c, 0x5f, 0x32,
  0x2f, 0x64, 0x65, 0x6e, 0x73, 0x65, 0x5f, 0x34, 0x2f, 0x4d, 0x61, 0x74,
  0x4d, 0x75, 0x6c, 0x00, 0x02, 0x00, 0x00, 0x00, 0x04, 0x00, 0x00, 0x00,
  0x90, 0x00, 0x00, 0x00, 0x00, 0x00, 0x0e, 0x00, 0x18, 0x00, 0x08, 0x00,
  0x07, 0x00, 0x0c, 0x00, 0x10, 0x00, 0x14, 0x00, 0x0e, 0x00, 0x00, 0x00,
  0x00, 0x00, 0x00, 0x02, 0x38, 0x00, 0x00, 0x00, 0x05, 0x00, 0x00, 0x00,
  0x0c, 0x00, 0x00, 0x00, 0x04, 0x00, 0x00, 0x00, 0xe4, 0xfe, 0xff, 0xff,
  0x1c, 0x00, 0x00, 0x00, 0x73, 0x65, 0x71, 0x75, 0x65, 0x6e, 0x74, 0x69,
  0x61, 0x6c, 0x5f, 0x32, 0x2f, 0x66, 0x6c, 0x61, 0x74, 0x74, 0x65, 0x6e,
  0x5f, 0x32, 0x2f, 0x43, 0x6f, 0x6e, 0x73, 0x74, 0x00, 0x00, 0x00, 0x00,
  0x01, 0x00, 0x00, 0x00, 0x02, 0x00, 0x00, 0x00, 0x96, 0xff, 0xff, 0xff,
  0x28, 0x00, 0x00, 0x00, 0x04, 0x00, 0x00, 0x00, 0x0c, 0x00, 0x00, 0x00,
  0x04, 0x00, 0x00, 0x00, 0x28, 0xff, 0xff, 0xff, 0x0d, 0x00, 0x00, 0x00,
  0x63, 0x6f, 0x6e, 0x76, 0x32, 0x64, 0x5f, 0x32, 0x2f, 0x62, 0x69, 0x61,
  0x73, 0x00, 0x00, 0x00, 0x01, 0x00, 0x00, 0x00, 0x04, 0x00, 0x00, 0x00,
  0xca, 0xff, 0xff, 0xff, 0x28, 0x00, 0x00, 0x00, 0x03, 0x00, 0x00, 0x00,
  0x0c, 0x00, 0x00, 0x00, 0x04, 0x00, 0x00, 0x00, 0x5c, 0xff, 0xff, 0xff,
  0x0c, 0x00, 0x00, 0x00, 0x64, 0x65, 0x6e, 0x73, 0x65, 0x5f, 0x34, 0x2f,
  0x62, 0x69, 0x61, 0x73, 0x00, 0x00, 0x00, 0x00, 0x01, 0x00, 0x00, 0x00,
  0x04, 0x00, 0x00, 0x00, 0x00, 0x00, 0x0e, 0x00, 0x14, 0x00, 0x04, 0x00,
  0x00, 0x00, 0x08, 0x00, 0x0c, 0x00, 0x10, 0x00, 0x0e, 0x00, 0x00, 0x00,
  0x28, 0x00, 0x00, 0x00, 0x02, 0x00, 0x00, 0x00, 0x0c, 0x00, 0x00, 0x00,
  0x04, 0x00, 0x00, 0x00, 0xa0, 0xff, 0xff, 0xff, 0x0c, 0x00, 0x00, 0x00,
  0x64, 0x65, 0x6e, 0x73, 0x65, 0x5f, 0x35, 0x2f, 0x62, 0x69, 0x61, 0x73,
  0x00, 0x00, 0x00, 0x00, 0x01, 0x00, 0x00, 0x00, 0x01, 0x00, 0x00, 0x00,
  0x14, 0x00, 0x18, 0x00, 0x04, 0x00, 0x00, 0x00, 0x08, 0x00, 0x0c, 0x00,
  0x10, 0x00, 0x00, 0x00, 0x00, 0x00, 0x14, 0x00, 0x14, 0x00, 0x00, 0x00,
  0x58, 0x00, 0x00, 0x00, 0x01, 0x00, 0x00, 0x00, 0x28, 0x00, 0x00, 0x00,
  0x20, 0x00, 0x00, 0x00, 0x04, 0x00, 0x00, 0x00, 0x04, 0x00, 0x00, 0x00,
  0xff, 0xff, 0xff, 0xff, 0x06, 0x00, 0x00, 0x00, 0x06, 0x00, 0x00, 0x00,
  0x01, 0x00, 0x00, 0x00, 0x04, 0x00, 0x04, 0x00, 0x04, 0x00, 0x00, 0x00,
  0x20, 0x00, 0x00, 0x00, 0x73, 0x65, 0x72, 0x76, 0x69, 0x6e, 0x67, 0x5f,
  0x64, 0x65, 0x66, 0x61, 0x75, 0x6c, 0x74, 0x5f, 0x63, 0x6f, 0x6e, 0x76,
  0x32, 0x64, 0x5f, 0x32, 0x5f, 0x69, 0x6e, 0x70, 0x75, 0x74, 0x3a, 0x30,
  0x00, 0x00, 0x00, 0x00, 0x04, 0x00, 0x00, 0x00, 0x01, 0x00, 0x00, 0x00,
  0x06, 0x00, 0x00, 0x00, 0x06, 0x00, 0x00, 0x00, 0x01, 0x00, 0x00, 0x00,
  0x03, 0x00, 0x00, 0x00, 0x40, 0x00, 0x00, 0x00, 0x24, 0x00, 0x00, 0x00,
  0x04, 0x00, 0x00, 0x00, 0xd8, 0xff, 0xff, 0xff, 0x00, 0x00, 0x00, 0x09,
  0x09, 0x00, 0x00, 0x00, 0x09, 0x00, 0x00, 0x00, 0x0c, 0x00, 0x0c, 0x00,
  0x07, 0x00, 0x00, 0x00, 0x00, 0x00, 0x08, 0x00, 0x0c, 0x00, 0x00, 0x00,
  0x00, 0x00, 0x00, 0x16, 0x16, 0x00, 0x00, 0x00, 0x0c, 0x00, 0x10, 0x00,
  0x07, 0x00, 0x00, 0x00, 0x08, 0x00, 0x0c, 0x00, 0x0c, 0x00, 0x00, 0x00,
  0x00, 0x00, 0x00, 0x03, 0x05, 0x00, 0x00, 0x00, 0x03, 0x00, 0x00, 0x00
};
const int g_model_len = 4560;
